TRT-100300-MinMaxCalibration
images: 3c010204
/model.0/conv/Conv_output_0: 3fb7942f
/model.22/Constant_9_output_0_output: 3f204081
output0: 40a25177
/model.22/Constant_10_output_0_output: 3f204081
/model.0/act/Sigmoid_output_0: 3c010204
/model.22/Sub_1_output_0: 3dd7fd81
/model.22/Mul_2_output_0: 40a25177
/model.0/act/Mul_output_0: 3fb3c82c
/model.22/Concat_4_output_0: 3f2139fd
/model.1/conv/Conv_output_0: 3fabb0fb
/model.1/act/Sigmoid_output_0: 3c010204
/model.1/act/Mul_output_0: 3f6c6465
/model.2/cv1/conv/Conv_output_0: 3f5eaa7e
/model.2/cv1/act/Sigmoid_output_0: 3c010204
/model.2/cv1/act/Mul_output_0: 3ec19423
/model.2/Split_output_0: 3ec19423
/model.2/Split_output_1: 3e4a45b4
/model.2/m.0/cv1/conv/Conv_output_0: 3eb24154
/model.2/m.0/cv1/act/Sigmoid_output_0: 3c010204
/model.2/m.0/cv1/act/Mul_output_0: 3e515a6d
/model.2/m.0/cv2/conv/Conv_output_0: 3e30d75a
/model.2/m.0/cv2/act/Sigmoid_output_0: 3c010204
/model.2/m.0/cv2/act/Mul_output_0: 3e0fa6bf
/model.2/m.0/Add_output_0: 3e6e2f22
/model.2/m.1/cv1/conv/Conv_output_0: 3e5aa173
/model.2/m.1/cv1/act/Sigmoid_output_0: 3c010204
/model.2/m.1/cv1/act/Mul_output_0: 3e4ff02e
/model.2/m.1/cv2/conv/Conv_output_0: 3e3380e0
/model.2/m.1/cv2/act/Sigmoid_output_0: 3c010204
/model.2/m.1/cv2/act/Mul_output_0: 3e1fdffc
/model.2/m.1/Add_output_0: 3e7abcb4
/model.2/m.2/cv1/conv/Conv_output_0: 3de9c28d
/model.2/m.2/cv1/act/Sigmoid_output_0: 3c010200
/model.2/m.2/cv1/act/Mul_output_0: 3de9c286
/model.2/m.2/cv2/conv/Conv_output_0: 3e9d2bc6
/model.2/m.2/cv2/act/Sigmoid_output_0: 3c010204
/model.2/m.2/cv2/act/Mul_output_0: 3e90bcb6
/model.2/m.2/Add_output_0: 3e9efff4
/model.2/Concat_output_0: 3ec19423
/model.2/cv2/conv/Conv_output_0: 3e3083f8
/model.2/cv2/act/Sigmoid_output_0: 3c010203
/model.2/cv2/act/Mul_output_0: 3dfc2ace
/model.3/conv/Conv_output_0: 3e036202
/model.3/act/Sigmoid_output_0: 3c010204
/model.3/act/Mul_output_0: 3e036202
/model.4/cv1/conv/Conv_output_0: 3e694bbb
/model.4/cv1/act/Sigmoid_output_0: 3c010204
/model.4/cv1/act/Mul_output_0: 3e694bbb
/model.4/Split_output_0: 3e694bbb
/model.4/Split_output_1: 3dc17745
/model.4/m.0/cv1/conv/Conv_output_0: 3dd71455
/model.4/m.0/cv1/act/Sigmoid_output_0: 3c0100c4
/model.4/m.0/cv1/act/Mul_output_0: 3da44417
/model.4/m.0/cv2/conv/Conv_output_0: 3d85ea3a
/model.4/m.0/cv2/act/Sigmoid_output_0: 3c00f4de
/model.4/m.0/cv2/act/Mul_output_0: 3d7c62ab
/model.4/m.0/Add_output_0: 3dbd0b72
/model.4/m.1/cv1/conv/Conv_output_0: 3dc950b5
/model.4/m.1/cv1/act/Sigmoid_output_0: 3c00fd45
/model.4/m.1/cv1/act/Mul_output_0: 3d8e901d
/model.4/m.1/cv2/conv/Conv_output_0: 3deed1f8
/model.4/m.1/cv2/act/Sigmoid_output_0: 3c0101dd
/model.4/m.1/cv2/act/Mul_output_0: 3dc5f9e2
/model.4/m.1/Add_output_0: 3dc4368f
/model.4/m.2/cv1/conv/Conv_output_0: 3db7af3e
/model.4/m.2/cv1/act/Sigmoid_output_0: 3c00e98b
/model.4/m.2/cv1/act/Mul_output_0: 3d684230
/model.4/m.2/cv2/conv/Conv_output_0: 3e03a4a2
/model.4/m.2/cv2/act/Sigmoid_output_0: 3c010204
/model.4/m.2/cv2/act/Mul_output_0: 3e03a4a2
/model.4/m.2/Add_output_0: 3e059da8
/model.4/m.3/cv1/conv/Conv_output_0: 3dcb59b9
/model.4/m.3/cv1/act/Sigmoid_output_0: 3c0100bc
/model.4/m.3/cv1/act/Mul_output_0: 3da3df31
/model.4/m.3/cv2/conv/Conv_output_0: 3deba398
/model.4/m.3/cv2/act/Sigmoid_output_0: 3c010200
/model.4/m.3/cv2/act/Mul_output_0: 3deba391
/model.4/m.3/Add_output_0: 3e2369eb
/model.4/m.4/cv1/conv/Conv_output_0: 3db475cc
/model.4/m.4/cv1/act/Sigmoid_output_0: 3c00fc1d
/model.4/m.4/cv1/act/Mul_output_0: 3d8b0e25
/model.4/m.4/cv2/conv/Conv_output_0: 3dfe0c75
/model.4/m.4/cv2/act/Sigmoid_output_0: 3c010203
/model.4/m.4/cv2/act/Mul_output_0: 3dfe0c73
/model.4/m.4/Add_output_0: 3e22e71f
/model.4/m.5/cv1/conv/Conv_output_0: 3da768bb
/model.4/m.5/cv1/act/Sigmoid_output_0: 3c0100fd
/model.4/m.5/cv1/act/Mul_output_0: 3da76766
/model.4/m.5/cv2/conv/Conv_output_0: 3e6336e7
/model.4/m.5/cv2/act/Sigmoid_output_0: 3c010204
/model.4/m.5/cv2/act/Mul_output_0: 3e6336e7
/model.4/m.5/Add_output_0: 3e92a963
/model.4/Concat_output_0: 3e92a963
/model.4/cv2/conv/Conv_output_0: 3e02f352
/model.4/cv2/act/Sigmoid_output_0: 3c0101e8
/model.4/cv2/act/Mul_output_0: 3dcb6254
/model.5/conv/Conv_output_0: 3de07504
/model.5/act/Sigmoid_output_0: 3c0101fc
/model.5/act/Mul_output_0: 3de074f7
/model.6/cv1/conv/Conv_output_0: 3e130c8a
/model.6/cv1/act/Sigmoid_output_0: 3c010204
/model.6/cv1/act/Mul_output_0: 3e09f4d3
/model.6/Split_output_0: 3e09f4d3
/model.6/Split_output_1: 3dd30e9e
/model.6/m.0/cv1/conv/Conv_output_0: 3dd9ddb4
/model.6/m.0/cv1/act/Sigmoid_output_0: 3c0101f9
/model.6/m.0/cv1/act/Mul_output_0: 3dd9dda1
/model.6/m.0/cv2/conv/Conv_output_0: 3dbb658a
/model.6/m.0/cv2/act/Sigmoid_output_0: 3c0101b8
/model.6/m.0/cv2/act/Mul_output_0: 3dbb651c
/model.6/m.0/Add_output_0: 3dd904d4
/model.6/m.1/cv1/conv/Conv_output_0: 3dbb81c5
/model.6/m.1/cv1/act/Sigmoid_output_0: 3c00fd4b
/model.6/m.1/cv1/act/Mul_output_0: 3d8ea4eb
/model.6/m.1/cv2/conv/Conv_output_0: 3dadce55
/model.6/m.1/cv2/act/Sigmoid_output_0: 3c010156
/model.6/m.1/cv2/act/Mul_output_0: 3dadcd6a
/model.6/m.1/Add_output_0: 3dd863de
/model.6/m.2/cv1/conv/Conv_output_0: 3da60c91
/model.6/m.2/cv1/act/Sigmoid_output_0: 3c00ff58
/model.6/m.2/cv1/act/Mul_output_0: 3d97f306
/model.6/m.2/cv2/conv/Conv_output_0: 3df0381e
/model.6/m.2/cv2/act/Sigmoid_output_0: 3c010201
/model.6/m.2/cv2/act/Mul_output_0: 3df03818
/model.6/m.2/Add_output_0: 3de803b9
/model.6/m.3/cv1/conv/Conv_output_0: 3ddace8f
/model.6/m.3/cv1/act/Sigmoid_output_0: 3c0101fa
/model.6/m.3/cv1/act/Mul_output_0: 3ddace7e
/model.6/m.3/cv2/conv/Conv_output_0: 3df2e1f8
/model.6/m.3/cv2/act/Sigmoid_output_0: 3c010201
/model.6/m.3/cv2/act/Mul_output_0: 3df2e1f2
/model.6/m.3/Add_output_0: 3e00dcf6
/model.6/m.4/cv1/conv/Conv_output_0: 3db6877e
/model.6/m.4/cv1/act/Sigmoid_output_0: 3c00fe9c
/model.6/m.4/cv1/act/Mul_output_0: 3d94112d
/model.6/m.4/cv2/conv/Conv_output_0: 3e00d10f
/model.6/m.4/cv2/act/Sigmoid_output_0: 3c010203
/model.6/m.4/cv2/act/Mul_output_0: 3e00d10e
/model.6/m.4/Add_output_0: 3e12dab7
/model.6/m.5/cv1/conv/Conv_output_0: 3dcc8cf0
/model.6/m.5/cv1/act/Sigmoid_output_0: 3c00f1f4
/model.6/m.5/cv1/act/Mul_output_0: 3d75e76f
/model.6/m.5/cv2/conv/Conv_output_0: 3e25d982
/model.6/m.5/cv2/act/Sigmoid_output_0: 3c010204
/model.6/m.5/cv2/act/Mul_output_0: 3e25d982
/model.6/m.5/Add_output_0: 3e32b41d
/model.6/Concat_output_0: 3e32b41d
/model.6/cv2/conv/Conv_output_0: 3db84002
/model.6/cv2/act/Sigmoid_output_0: 3c0101a5
/model.6/cv2/act/Mul_output_0: 3db7dbfc
/model.7/conv/Conv_output_0: 3dd649b7
/model.7/act/Sigmoid_output_0: 3c0101f6
/model.7/act/Mul_output_0: 3dd649a0
/model.8/cv1/conv/Conv_output_0: 3e2e31d2
/model.8/cv1/act/Sigmoid_output_0: 3c010204
/model.8/cv1/act/Mul_output_0: 3e2e31d2
/model.8/Split_output_0: 3e2398d6
/model.8/Split_output_1: 3e2e31d2
/model.8/m.0/cv1/conv/Conv_output_0: 3e129cc3
/model.8/m.0/cv1/act/Sigmoid_output_0: 3c010204
/model.8/m.0/cv1/act/Mul_output_0: 3e129cc3
/model.8/m.0/cv2/conv/Conv_output_0: 3dc69fce
/model.8/m.0/cv2/act/Sigmoid_output_0: 3c0101de
/model.8/m.0/cv2/act/Mul_output_0: 3dc69f93
/model.8/m.0/Add_output_0: 3e2ce520
/model.8/m.1/cv1/conv/Conv_output_0: 3dc0aa03
/model.8/m.1/cv1/act/Sigmoid_output_0: 3c010127
/model.8/m.1/cv1/act/Mul_output_0: 3daa218e
/model.8/m.1/cv2/conv/Conv_output_0: 3dd9da8a
/model.8/m.1/cv2/act/Sigmoid_output_0: 3c0100a3
/model.8/m.1/cv2/act/Mul_output_0: 3da2a3a6
/model.8/m.1/Add_output_0: 3e2d5aa6
/model.8/m.2/cv1/conv/Conv_output_0: 3da0ac13
/model.8/m.2/cv1/act/Sigmoid_output_0: 3c010075
/model.8/m.2/cv1/act/Mul_output_0: 3da0aa22
/model.8/m.2/cv2/conv/Conv_output_0: 3daed0a2
/model.8/m.2/cv2/act/Sigmoid_output_0: 3c010160
/model.8/m.2/cv2/act/Mul_output_0: 3daecfc4
/model.8/m.2/Add_output_0: 3e2b1d36
/model.8/Concat_output_0: 3e2e31d2
/model.8/cv2/conv/Conv_output_0: 3db5600c
/model.8/cv2/act/Sigmoid_output_0: 3c010195
/model.8/cv2/act/Mul_output_0: 3db55f70
/model.9/cv1/conv/Conv_output_0: 3da6eb20
/model.9/cv1/act/Sigmoid_output_0: 3c0100f4
/model.9/cv1/act/Mul_output_0: 3da6e9c1
/model.9/m/MaxPool_output_0: 3da6e9c1
/model.9/m_1/MaxPool_output_0: 3da6e9c1
/model.9/m_2/MaxPool_output_0: 3da6e9c1
/model.9/Concat_output_0: 3da6e9c1
/model.9/cv2/conv/Conv_output_0: 3d92b971
/model.9/cv2/act/Sigmoid_output_0: 3c00164a
/model.9/cv2/act/Mul_output_0: 3d1e080b
/model.10/Resize_output_0: 3d1e080b
/model.11/Concat_output_0: 3db7dbfc
/model.12/cv1/conv/Conv_output_0: 3e126adc
/model.12/cv1/act/Sigmoid_output_0: 3c010204
/model.12/cv1/act/Mul_output_0: 3e126adc
/model.12/Split_output_0: 3df0e24e
/model.12/Split_output_1: 3e126adc
/model.12/m.0/cv1/conv/Conv_output_0: 3dd89139
/model.12/m.0/cv1/act/Sigmoid_output_0: 3c0101f8
/model.12/m.0/cv1/act/Mul_output_0: 3dd89125
/model.12/m.0/cv2/conv/Conv_output_0: 3e0378e3
/model.12/m.0/cv2/act/Sigmoid_output_0: 3c010204
/model.12/m.0/cv2/act/Mul_output_0: 3e0378e3
/model.12/m.1/cv1/conv/Conv_output_0: 3dea292c
/model.12/m.1/cv1/act/Sigmoid_output_0: 3c010200
/model.12/m.1/cv1/act/Mul_output_0: 3dea2925
/model.12/m.1/cv2/conv/Conv_output_0: 3e139120
/model.12/m.1/cv2/act/Sigmoid_output_0: 3c010204
/model.12/m.1/cv2/act/Mul_output_0: 3e139120
/model.12/m.2/cv1/conv/Conv_output_0: 3e306b8d
/model.12/m.2/cv1/act/Sigmoid_output_0: 3c010204
/model.12/m.2/cv1/act/Mul_output_0: 3e306b8d
/model.12/m.2/cv2/conv/Conv_output_0: 3e082ecc
/model.12/m.2/cv2/act/Sigmoid_output_0: 3c010204
/model.12/m.2/cv2/act/Mul_output_0: 3e082ecc
/model.12/Concat_output_0: 3e139120
/model.12/cv2/conv/Conv_output_0: 3e003c96
/model.12/cv2/act/Sigmoid_output_0: 3c010203
/model.12/cv2/act/Mul_output_0: 3e003c95
/model.13/Resize_output_0: 3e003c95
/model.14/Concat_output_0: 3e003c95
/model.15/cv1/conv/Conv_output_0: 3de46f9f
/model.15/cv1/act/Sigmoid_output_0: 3c0101fe
/model.15/cv1/act/Mul_output_0: 3de46f94
/model.15/Split_output_0: 3de46f94
/model.15/Split_output_1: 3dad55b7
/model.15/m.0/cv1/conv/Conv_output_0: 3d9b660e
/model.15/m.0/cv1/act/Sigmoid_output_0: 3c00ffdf
/model.15/m.0/cv1/act/Mul_output_0: 3d9b6379
/model.15/m.0/cv2/conv/Conv_output_0: 3db416f2
/model.15/m.0/cv2/act/Sigmoid_output_0: 3c01018c
/model.15/m.0/cv2/act/Mul_output_0: 3db4164b
/model.15/m.1/cv1/conv/Conv_output_0: 3dd1d99a
/model.15/m.1/cv1/act/Sigmoid_output_0: 3c0101d7
/model.15/m.1/cv1/act/Mul_output_0: 3dc3d36c
/model.15/m.1/cv2/conv/Conv_output_0: 3dea87ad
/model.15/m.1/cv2/act/Sigmoid_output_0: 3c0101c3
/model.15/m.1/cv2/act/Mul_output_0: 3dbdccc5
/model.15/m.2/cv1/conv/Conv_output_0: 3e0cd1cc
/model.15/m.2/cv1/act/Sigmoid_output_0: 3c010204
/model.15/m.2/cv1/act/Mul_output_0: 3e0cd1cc
/model.15/m.2/cv2/conv/Conv_output_0: 3e9149fa
/model.15/m.2/cv2/act/Sigmoid_output_0: 3c010204
/model.15/m.2/cv2/act/Mul_output_0: 3e9149fa
/model.15/Concat_output_0: 3e9149fa
/model.15/cv2/conv/Conv_output_0: 3e6f5131
/model.15/cv2/act/Sigmoid_output_0: 3c010204
/model.15/cv2/act/Mul_output_0: 3e311233
/model.16/conv/Conv_output_0: 3deac267
/model.22/cv2.0/cv2.0.0/conv/Conv_output_0: 3ed988a7
/model.22/cv3.0/cv3.0.0/conv/Conv_output_0: 3e25c4a2
/model.16/act/Sigmoid_output_0: 3c010200
/model.22/cv2.0/cv2.0.0/act/Sigmoid_output_0: 3c010204
/model.22/cv3.0/cv3.0.0/act/Sigmoid_output_0: 3c010204
/model.16/act/Mul_output_0: 3deac260
/model.22/cv2.0/cv2.0.0/act/Mul_output_0: 3ed988a7
/model.22/cv3.0/cv3.0.0/act/Mul_output_0: 3e25c4a2
/model.17/Concat_output_0: 3e003c95
/model.22/cv2.0/cv2.0.1/conv/Conv_output_0: 3f0cdac8
/model.22/cv3.0/cv3.0.1/conv/Conv_output_0: 3f1527a2
/model.18/cv1/conv/Conv_output_0: 3e13f392
/model.22/cv2.0/cv2.0.1/act/Sigmoid_output_0: 3c010204
/model.22/cv3.0/cv3.0.1/act/Sigmoid_output_0: 3c010204
/model.18/cv1/act/Sigmoid_output_0: 3c010204
/model.22/cv2.0/cv2.0.1/act/Mul_output_0: 3f0cdac8
/model.22/cv3.0/cv3.0.1/act/Mul_output_0: 3ec88e11
/model.18/cv1/act/Mul_output_0: 3e137283
/model.22/cv2.0/cv2.0.2/Conv_output_0: 3f9a1607
/model.22/cv3.0/cv3.0.2/Conv_output_0: 3fd4c3e1
/model.18/Split_output_0: 3e137283
/model.18/Split_output_1: 3e025e7a
/model.22/Concat_output_0: 3fd4c3e1
/model.18/m.0/cv1/conv/Conv_output_0: 3dfbed72
/model.22/Reshape_output_0: 3fd4c3e1
/model.18/m.0/cv1/act/Sigmoid_output_0: 3c0101fc
/model.18/m.0/cv1/act/Mul_output_0: 3ddec93e
/model.18/m.0/cv2/conv/Conv_output_0: 3e1383c4
/model.18/m.0/cv2/act/Sigmoid_output_0: 3c010204
/model.18/m.0/cv2/act/Mul_output_0: 3e0900b8
/model.18/m.1/cv1/conv/Conv_output_0: 3e372531
/model.18/m.1/cv1/act/Sigmoid_output_0: 3c010204
/model.18/m.1/cv1/act/Mul_output_0: 3e372531
/model.18/m.1/cv2/conv/Conv_output_0: 3e197488
/model.18/m.1/cv2/act/Sigmoid_output_0: 3c010204
/model.18/m.1/cv2/act/Mul_output_0: 3e17bf6b
/model.18/m.2/cv1/conv/Conv_output_0: 3e2faf04
/model.18/m.2/cv1/act/Sigmoid_output_0: 3c010204
/model.18/m.2/cv1/act/Mul_output_0: 3e2faf04
/model.18/m.2/cv2/conv/Conv_output_0: 3e45f11e
/model.18/m.2/cv2/act/Sigmoid_output_0: 3c010204
/model.18/m.2/cv2/act/Mul_output_0: 3e45f11e
/model.18/Concat_output_0: 3e45f11e
/model.18/cv2/conv/Conv_output_0: 3e9a9c7a
/model.18/cv2/act/Sigmoid_output_0: 3c010204
/model.18/cv2/act/Mul_output_0: 3e199ffd
/model.19/conv/Conv_output_0: 3dddc459
/model.22/cv2.1/cv2.1.0/conv/Conv_output_0: 3e4ca8d7
/model.22/cv3.1/cv3.1.0/conv/Conv_output_0: 3e20f877
/model.19/act/Sigmoid_output_0: 3c0101fb
/model.22/cv2.1/cv2.1.0/act/Sigmoid_output_0: 3c010204
/model.22/cv3.1/cv3.1.0/act/Sigmoid_output_0: 3c010204
/model.19/act/Mul_output_0: 3dddc44a
/model.22/cv2.1/cv2.1.0/act/Mul_output_0: 3e4ca8d7
/model.22/cv3.1/cv3.1.0/act/Mul_output_0: 3e0d1da4
/model.20/Concat_output_0: 3dddc44a
/model.22/cv2.1/cv2.1.1/conv/Conv_output_0: 3e93bc39
/model.22/cv3.1/cv3.1.1/conv/Conv_output_0: 3eaee208
/model.21/cv1/conv/Conv_output_0: 3dde6791
/model.22/cv2.1/cv2.1.1/act/Sigmoid_output_0: 3c010204
/model.22/cv3.1/cv3.1.1/act/Sigmoid_output_0: 3c010204
/model.21/cv1/act/Sigmoid_output_0: 3c0101fc
/model.22/cv2.1/cv2.1.1/act/Mul_output_0: 3e93bc39
/model.22/cv3.1/cv3.1.1/act/Mul_output_0: 3e843a5a
/model.21/cv1/act/Mul_output_0: 3dde6783
/model.22/cv2.1/cv2.1.2/Conv_output_0: 3f21df22
/model.22/cv3.1/cv3.1.2/Conv_output_0: 3eafcc0e
/model.21/Split_output_0: 3dde6783
/model.21/Split_output_1: 3ddb4e52
/model.22/Concat_1_output_0: 3f21df22
/model.21/m.0/cv1/conv/Conv_output_0: 3deb091b
/model.22/Reshape_1_output_0: 3f21df22
/model.21/m.0/cv1/act/Sigmoid_output_0: 3c010200
/model.21/m.0/cv1/act/Mul_output_0: 3deb0914
/model.21/m.0/cv2/conv/Conv_output_0: 3dfd6f54
/model.21/m.0/cv2/act/Sigmoid_output_0: 3c010103
/model.21/m.0/cv2/act/Mul_output_0: 3da7c0ad
/model.21/m.1/cv1/conv/Conv_output_0: 3de64cef
/model.21/m.1/cv1/act/Sigmoid_output_0: 3c0101ff
/model.21/m.1/cv1/act/Mul_output_0: 3de64ce6
/model.21/m.1/cv2/conv/Conv_output_0: 3db8c32a
/model.21/m.1/cv2/act/Sigmoid_output_0: 3c01011c
/model.21/m.1/cv2/act/Mul_output_0: 3da95e14
/model.21/m.2/cv1/conv/Conv_output_0: 3db8970c
/model.21/m.2/cv1/act/Sigmoid_output_0: 3c0101a9
/model.21/m.2/cv1/act/Mul_output_0: 3db8968a
/model.21/m.2/cv2/conv/Conv_output_0: 3de86b4a
/model.21/m.2/cv2/act/Sigmoid_output_0: 3c0101ff
/model.21/m.2/cv2/act/Mul_output_0: 3de86b42
/model.21/Concat_output_0: 3de86b42
/model.21/cv2/conv/Conv_output_0: 3e180fc7
/model.21/cv2/act/Sigmoid_output_0: 3c010204
/model.21/cv2/act/Mul_output_0: 3e180fc7
/model.22/cv2.2/cv2.2.0/conv/Conv_output_0: 3dfd6d02
/model.22/cv3.2/cv3.2.0/conv/Conv_output_0: 3dddb73c
/model.22/cv2.2/cv2.2.0/act/Sigmoid_output_0: 3c010203
/model.22/cv3.2/cv3.2.0/act/Sigmoid_output_0: 3c0101fb
/model.22/cv2.2/cv2.2.0/act/Mul_output_0: 3dfd6d00
/model.22/cv3.2/cv3.2.0/act/Mul_output_0: 3dddb72d
/model.22/cv2.2/cv2.2.1/conv/Conv_output_0: 3e414777
/model.22/cv3.2/cv3.2.1/conv/Conv_output_0: 3e547b34
/model.22/cv2.2/cv2.2.1/act/Sigmoid_output_0: 3c010204
/model.22/cv3.2/cv3.2.1/act/Sigmoid_output_0: 3c010203
/model.22/cv2.2/cv2.2.1/act/Mul_output_0: 3e414777
/model.22/cv3.2/cv3.2.1/act/Mul_output_0: 3dff0790
/model.22/cv2.2/cv2.2.2/Conv_output_0: 3ea45fe4
/model.22/cv3.2/cv3.2.2/Conv_output_0: 3e57fae5
/model.22/Concat_2_output_0: 3ea45fe4
/model.22/Reshape_2_output_0: 3ea45fe4
/model.22/Concat_3_output_0: 3fd4c3e1
/model.22/Split_output_0: 3f9a1607
/model.22/Split_output_1: 3fd4c3e1
/model.22/dfl/Reshape_output_0: 3f9a1607
/model.22/Sigmoid_output_0: 3bf0a8d9
/model.22/dfl/Transpose_output_0: 3f9a1607
/model.22/dfl/Softmax_output: 3c010204
/model.22/dfl/Softmax_output_0: 3c010204
/model.22/dfl/conv/Conv_output_0: 3d605e7e
/model.22/dfl/Reshape_1_output_0: 3d605e7e
/model.22/Constant_12_output_0_output: 3e810204
/model.22/Constant_11_output_0_output: 3c810204
/model.22/Slice_output_0: 3d522fcc
ONNXTRT_Broadcast_95_output: 3e810204
/model.22/Add_1_output_0: 3f234f02
ONNXTRT_Broadcast_output: 3c810204
/model.22/Sub_output_0: 3f20392d
/model.22/Slice_1_output_0: 3d605e7e
/model.22/Div_1_output_0: 3f2139fd
/model.22/Add_2_output_0: 3fa139fd
