TRT-100300-MinMaxCalibration
images: 3c010204
/model.0/conv/Conv_output_0: 3fa9eeab
/model.22/Div_1_output_0: 3f20eca1
/model.22/Constant_12_output_0_output: 3e810204
/model.22/Constant_11_output_0_output: 3c810204
/model.0/act/Sigmoid_output_0: 3c010204
/model.22/Add_2_output_0: 3fa0eca1
/model.22/Sub_1_output_0: 3da3bd3e
/model.0/act/Mul_output_0: 3fa40bb1
/model.22/Mul_2_output_0: 40a0eca1
/model.1/conv/Conv_output_0: 3fbd6dad
/model.1/act/Sigmoid_output_0: 3c010204
/model.1/act/Mul_output_0: 3f9876cd
/model.2/cv1/conv/Conv_output_0: 3fa12fea
/model.2/cv1/act/Sigmoid_output_0: 3c010204
/model.2/cv1/act/Mul_output_0: 3efd7560
/model.2/Split_output_0: 3efd7560
/model.2/Split_output_1: 3e59fed8
/model.2/m.0/cv1/conv/Conv_output_0: 3ef569c1
/model.2/m.0/cv1/act/Sigmoid_output_0: 3c010204
/model.2/m.0/cv1/act/Mul_output_0: 3eb0f076
/model.2/m.0/cv2/conv/Conv_output_0: 3eb6203d
/model.2/m.0/cv2/act/Sigmoid_output_0: 3c010204
/model.2/m.0/cv2/act/Mul_output_0: 3e903d73
/model.2/m.0/Add_output_0: 3e9ed07d
/model.2/Concat_output_0: 3efd7560
/model.2/cv2/conv/Conv_output_0: 3e905d59
/model.2/cv2/act/Sigmoid_output_0: 3c010204
/model.2/cv2/act/Mul_output_0: 3e34b8af
/model.3/conv/Conv_output_0: 3e0a9c01
/model.3/act/Sigmoid_output_0: 3c010203
/model.3/act/Mul_output_0: 3dfe3463
/model.4/cv1/conv/Conv_output_0: 3e28759b
/model.4/cv1/act/Sigmoid_output_0: 3c010204
/model.4/cv1/act/Mul_output_0: 3e124da9
/model.4/Split_output_0: 3e124da9
/model.4/Split_output_1: 3dbb270c
/model.4/m.0/cv1/conv/Conv_output_0: 3dfd1278
/model.4/m.0/cv1/act/Sigmoid_output_0: 3c0101f3
/model.4/m.0/cv1/act/Mul_output_0: 3dd3f380
/model.4/m.0/cv2/conv/Conv_output_0: 3dac7f2f
/model.4/m.0/cv2/act/Sigmoid_output_0: 3c01012d
/model.4/m.0/cv2/act/Mul_output_0: 3daa93b2
/model.4/m.0/Add_output_0: 3de80a46
/model.4/m.1/cv1/conv/Conv_output_0: 3dbf04fa
/model.4/m.1/cv1/act/Sigmoid_output_0: 3c01005c
/model.4/m.1/cv1/act/Mul_output_0: 3d9f99a0
/model.4/m.1/cv2/conv/Conv_output_0: 3e10dc5b
/model.4/m.1/cv2/act/Sigmoid_output_0: 3c010204
/model.4/m.1/cv2/act/Mul_output_0: 3e016d64
/model.4/m.1/Add_output_0: 3dfba15f
/model.4/Concat_output_0: 3e124da9
/model.4/cv2/conv/Conv_output_0: 3dd2a056
/model.4/cv2/act/Sigmoid_output_0: 3c0101df
/model.4/cv2/act/Mul_output_0: 3dc7033b
/model.5/conv/Conv_output_0: 3de93c0f
/model.5/act/Sigmoid_output_0: 3c0101fc
/model.5/act/Mul_output_0: 3dde4d8c
/model.6/cv1/conv/Conv_output_0: 3dfcdaeb
/model.6/cv1/act/Sigmoid_output_0: 3c010203
/model.6/cv1/act/Mul_output_0: 3dfcdae9
/model.6/Split_output_0: 3dfcdae9
/model.6/Split_output_1: 3db9f693
/model.6/m.0/cv1/conv/Conv_output_0: 3de3d0a5
/model.6/m.0/cv1/act/Sigmoid_output_0: 3c0101d1
/model.6/m.0/cv1/act/Mul_output_0: 3dc1af9e
/model.6/m.0/cv2/conv/Conv_output_0: 3db7a8b2
/model.6/m.0/cv2/act/Sigmoid_output_0: 3c01018e
/model.6/m.0/cv2/act/Mul_output_0: 3db467d2
/model.6/m.0/Add_output_0: 3db9b338
/model.6/m.1/cv1/conv/Conv_output_0: 3daae0c8
/model.6/m.1/cv1/act/Sigmoid_output_0: 3c010131
/model.6/m.1/cv1/act/Mul_output_0: 3daadfb0
/model.6/m.1/cv2/conv/Conv_output_0: 3e03e95e
/model.6/m.1/cv2/act/Sigmoid_output_0: 3c010202
/model.6/m.1/cv2/act/Mul_output_0: 3df60104
/model.6/m.1/Add_output_0: 3e101f46
/model.6/Concat_output_0: 3e101f46
/model.6/cv2/conv/Conv_output_0: 3dd1637a
/model.6/cv2/act/Sigmoid_output_0: 3c0101f1
/model.6/cv2/act/Mul_output_0: 3dd1635b
/model.7/conv/Conv_output_0: 3dba1c3a
/model.7/act/Sigmoid_output_0: 3c010182
/model.7/act/Mul_output_0: 3db2d0dc
/model.8/cv1/conv/Conv_output_0: 3dfd38b0
/model.8/cv1/act/Sigmoid_output_0: 3c010203
/model.8/cv1/act/Mul_output_0: 3dfd38ae
/model.8/Split_output_0: 3df2b2aa
/model.8/Split_output_1: 3dfd38ae
/model.8/m.0/cv1/conv/Conv_output_0: 3dce0e2b
/model.8/m.0/cv1/act/Sigmoid_output_0: 3c0101ec
/model.8/m.0/cv1/act/Mul_output_0: 3dce0e05
/model.8/m.0/cv2/conv/Conv_output_0: 3e0a5b85
/model.8/m.0/cv2/act/Sigmoid_output_0: 3c010204
/model.8/m.0/cv2/act/Mul_output_0: 3e0a5b85
/model.8/m.0/Add_output_0: 3e08bf97
/model.8/Concat_output_0: 3e08bf97
/model.8/cv2/conv/Conv_output_0: 3dd3b5bf
/model.8/cv2/act/Sigmoid_output_0: 3c0101ba
/model.8/cv2/act/Mul_output_0: 3dbbc6c1
/model.9/cv1/conv/Conv_output_0: 3daefa8d
/model.9/cv1/act/Sigmoid_output_0: 3c010162
/model.9/cv1/act/Mul_output_0: 3daef9b1
/model.9/m/MaxPool_output_0: 3daef9b1
/model.9/m_1/MaxPool_output_0: 3daef9b1
/model.9/m_2/MaxPool_output_0: 3daef9b1
/model.9/Concat_output_0: 3daef9b1
/model.9/cv2/conv/Conv_output_0: 3d980216
/model.9/cv2/act/Sigmoid_output_0: 3c00fa82
/model.9/cv2/act/Mul_output_0: 3d87493c
/model.10/Resize_output_0: 3d87493c
/model.11/Concat_output_0: 3dd1635b
/model.12/cv1/conv/Conv_output_0: 3dc2252c
/model.12/cv1/act/Sigmoid_output_0: 3c0101ba
/model.12/cv1/act/Mul_output_0: 3dbbd467
/model.12/Split_output_0: 3db861d0
/model.12/Split_output_1: 3dbbd467
/model.12/m.0/cv1/conv/Conv_output_0: 3dc304e8
/model.12/m.0/cv1/act/Sigmoid_output_0: 3c0101d5
/model.12/m.0/cv1/act/Mul_output_0: 3dc304a0
/model.12/m.0/cv2/conv/Conv_output_0: 3de2e2d1
/model.12/m.0/cv2/act/Sigmoid_output_0: 3c0101fd
/model.12/m.0/cv2/act/Mul_output_0: 3de2e2c6
/model.12/Concat_output_0: 3de2e2c6
/model.12/cv2/conv/Conv_output_0: 3e010696
/model.12/cv2/act/Sigmoid_output_0: 3c010204
/model.12/cv2/act/Mul_output_0: 3e010696
/model.13/Resize_output_0: 3e010696
/model.14/Concat_output_0: 3e010696
/model.15/cv1/conv/Conv_output_0: 3db7103d
/model.15/cv1/act/Sigmoid_output_0: 3c00ffa6
/model.15/cv1/act/Mul_output_0: 3d99da57
/model.15/Split_output_0: 3d99da57
/model.15/Split_output_1: 3d6caf76
/model.15/m.0/cv1/conv/Conv_output_0: 3d8af2e8
/model.15/m.0/cv1/act/Sigmoid_output_0: 3c00fbaa
/model.15/m.0/cv1/act/Mul_output_0: 3d89e858
/model.15/m.0/cv2/conv/Conv_output_0: 3e03620b
/model.15/m.0/cv2/act/Sigmoid_output_0: 3c0101f1
/model.15/m.0/cv2/act/Mul_output_0: 3dd21157
/model.15/Concat_output_0: 3dd21157
/model.15/cv2/conv/Conv_output_0: 3e37f004
/model.15/cv2/act/Sigmoid_output_0: 3c010138
/model.15/cv2/act/Mul_output_0: 3dab5fe0
/model.16/conv/Conv_output_0: 3e11fe4a
/model.22/cv2.0/cv2.0.0/conv/Conv_output_0: 3e46d0b2
/model.22/cv3.0/cv3.0.0/conv/Conv_output_0: 3e07ce1c
/model.16/act/Sigmoid_output_0: 3c010201
/model.22/cv2.0/cv2.0.0/act/Sigmoid_output_0: 3c010204
/model.22/cv3.0/cv3.0.0/act/Sigmoid_output_0: 3c010200
/model.16/act/Mul_output_0: 3df0ec8f
/model.22/cv2.0/cv2.0.0/act/Mul_output_0: 3e3fb457
/model.22/cv3.0/cv3.0.0/act/Mul_output_0: 3de92b99
/model.17/Concat_output_0: 3e010696
/model.22/cv2.0/cv2.0.1/conv/Conv_output_0: 3ec81624
/model.22/cv3.0/cv3.0.1/conv/Conv_output_0: 3f43e4ff
/model.18/cv1/conv/Conv_output_0: 3e38a422
/model.22/cv2.0/cv2.0.1/act/Sigmoid_output_0: 3c010204
/model.22/cv3.0/cv3.0.1/act/Sigmoid_output_0: 3c010204
/model.18/cv1/act/Sigmoid_output_0: 3c010204
/model.22/cv2.0/cv2.0.1/act/Mul_output_0: 3ec81624
/model.22/cv3.0/cv3.0.1/act/Mul_output_0: 3e8efc37
/model.18/cv1/act/Mul_output_0: 3e07c306
/model.22/cv2.0/cv2.0.2/Conv_output_0: 3f05fa75
/model.22/cv3.0/cv3.0.2/Conv_output_0: 3eec6737
/model.18/Split_output_0: 3de4e767
/model.18/Split_output_1: 3e07c306
/model.22/Concat_output_0: 3f05fa75
/model.18/m.0/cv1/conv/Conv_output_0: 3df45443
/model.22/Reshape_output_0: 3f05fa75
/model.18/m.0/cv1/act/Sigmoid_output_0: 3c01009d
/model.18/m.0/cv1/act/Mul_output_0: 3da26325
/model.18/m.0/cv2/conv/Conv_output_0: 3e424aa1
/model.18/m.0/cv2/act/Sigmoid_output_0: 3c010204
/model.18/m.0/cv2/act/Mul_output_0: 3e0cdc61
/model.18/Concat_output_0: 3e0cdc61
/model.18/cv2/conv/Conv_output_0: 3e85564a
/model.18/cv2/act/Sigmoid_output_0: 3c010204
/model.18/cv2/act/Mul_output_0: 3e1b36c3
/model.19/conv/Conv_output_0: 3dca5717
/model.22/cv2.1/cv2.1.0/conv/Conv_output_0: 3e426175
/model.22/cv3.1/cv3.1.0/conv/Conv_output_0: 3e1bd8fa
/model.19/act/Sigmoid_output_0: 3c0101e6
/model.22/cv2.1/cv2.1.0/act/Sigmoid_output_0: 3c010204
/model.22/cv3.1/cv3.1.0/act/Sigmoid_output_0: 3c010204
/model.19/act/Mul_output_0: 3dca56e8
/model.22/cv2.1/cv2.1.0/act/Mul_output_0: 3e426175
/model.22/cv3.1/cv3.1.0/act/Mul_output_0: 3e1bd8fa
/model.20/Concat_output_0: 3dca56e8
/model.22/cv2.1/cv2.1.1/conv/Conv_output_0: 3ec32f39
/model.22/cv3.1/cv3.1.1/conv/Conv_output_0: 3f30c958
/model.21/cv1/conv/Conv_output_0: 3e0e2341
/model.22/cv2.1/cv2.1.1/act/Sigmoid_output_0: 3c010204
/model.22/cv3.1/cv3.1.1/act/Sigmoid_output_0: 3c010204
/model.21/cv1/act/Sigmoid_output_0: 3c010204
/model.22/cv2.1/cv2.1.1/act/Mul_output_0: 3ec32f39
/model.22/cv3.1/cv3.1.1/act/Mul_output_0: 3ef15e4a
/model.21/cv1/act/Mul_output_0: 3e0e2341
/model.22/cv2.1/cv2.1.2/Conv_output_0: 3e8c81b8
/model.22/cv3.1/cv3.1.2/Conv_output_0: 3e7e244a
/model.21/Split_output_0: 3e0e2341
/model.21/Split_output_1: 3dc19fb0
/model.22/Concat_1_output_0: 3e8c81b8
/model.21/m.0/cv1/conv/Conv_output_0: 3dd1ca00
/model.22/Reshape_1_output_0: 3e8c81b8
/model.21/m.0/cv1/act/Sigmoid_output_0: 3c0101c8
/model.21/m.0/cv1/act/Mul_output_0: 3dbf102d
/model.21/m.0/cv2/conv/Conv_output_0: 3e224a3d
/model.21/m.0/cv2/act/Sigmoid_output_0: 3c010204
/model.21/m.0/cv2/act/Mul_output_0: 3e027092
/model.21/Concat_output_0: 3e0e2341
/model.21/cv2/conv/Conv_output_0: 3e44929c
/model.21/cv2/act/Sigmoid_output_0: 3c010204
/model.21/cv2/act/Mul_output_0: 3e44929c
/model.22/cv2.2/cv2.2.0/conv/Conv_output_0: 3e28c5a1
/model.22/cv3.2/cv3.2.0/conv/Conv_output_0: 3ded04ea
/model.22/cv2.2/cv2.2.0/act/Sigmoid_output_0: 3c010204
/model.22/cv3.2/cv3.2.0/act/Sigmoid_output_0: 3c0101ef
/model.22/cv2.2/cv2.2.0/act/Mul_output_0: 3e28c5a1
/model.22/cv3.2/cv3.2.0/act/Mul_output_0: 3dcfb767
/model.22/cv2.2/cv2.2.1/conv/Conv_output_0: 3ea214ae
/model.22/cv3.2/cv3.2.1/conv/Conv_output_0: 3eedea85
/model.22/cv2.2/cv2.2.1/act/Sigmoid_output_0: 3c010204
/model.22/cv3.2/cv3.2.1/act/Sigmoid_output_0: 3c010204
/model.22/cv2.2/cv2.2.1/act/Mul_output_0: 3ea214ae
/model.22/cv3.2/cv3.2.1/act/Mul_output_0: 3e88f1b9
/model.22/cv2.2/cv2.2.2/Conv_output_0: 3ef9358f
/model.22/cv3.2/cv3.2.2/Conv_output_0: 3e4e8bde
/model.22/Concat_2_output_0: 3ef9358f
/model.22/Reshape_2_output_0: 3ef9358f
/model.22/Concat_3_output_0: 3f05fa75
/model.22/Split_output_0: 3f05fa75
/model.22/Split_output_1: 3eec6737
/model.22/dfl/Reshape_output_0: 3f05fa75
/model.22/Sigmoid_output_0: 3bed0d56
/model.22/dfl/Transpose_output_0: 3f05fa75
/model.22/dfl/Softmax_output: 3c010204
/model.22/dfl/Softmax_output_0: 3c010204
/model.22/dfl/conv/Conv_output_0: 3d40abbd
/model.22/dfl/Reshape_1_output_0: 3d40abbd
/model.22/Constant_10_output_0_output: 3f204081
/model.22/Add_1_output_0: 3f22e443
ONNXTRT_Broadcast_95_output: 3e810204
/model.22/Slice_output_0: 3d32199c
/model.22/Constant_9_output_0_output: 3f204081
/model.22/Concat_4_output_0: 3f20eca1
/model.22/Sub_output_0: 3f203b72
/model.22/Slice_1_output_0: 3d40abbd
output0: 40a0eca1
ONNXTRT_Broadcast_output: 3c810204
