TRT-100300-MinMaxCalibration
images: 3c010204
/model.0/conv/Conv_output_0: 3fa71602
/model.22/Slice_output_0: 3d3f8947
/model.22/Slice_1_output_0: 3d31a6e0
/model.22/Add_2_output_0: 3fa0d63d
/model.0/act/Sigmoid_output_0: 3c010204
/model.22/Constant_12_output_0_output: 3e810204
ONNXTRT_Broadcast_95_output: 3e810204
/model.0/act/Mul_output_0: 3fa480e6
/model.22/Sub_1_output_0: 3db450d0
/model.1/conv/Conv_output_0: 3fcb0961
/model.1/act/Sigmoid_output_0: 3c010204
/model.1/act/Mul_output_0: 3f887942
/model.2/cv1/conv/Conv_output_0: 3f42ba93
/model.2/cv1/act/Sigmoid_output_0: 3c010204
/model.2/cv1/act/Mul_output_0: 3ebf9bb5
/model.2/Split_output_0: 3ebf9bb5
/model.2/Split_output_1: 3e229943
/model.2/m.0/cv1/conv/Conv_output_0: 3ea9d10d
/model.2/m.0/cv1/act/Sigmoid_output_0: 3c010204
/model.2/m.0/cv1/act/Mul_output_0: 3e44253b
/model.2/m.0/cv2/conv/Conv_output_0: 3e4832be
/model.2/m.0/cv2/act/Sigmoid_output_0: 3c010204
/model.2/m.0/cv2/act/Mul_output_0: 3e4832be
/model.2/m.0/Add_output_0: 3e4832be
/model.2/m.1/cv1/conv/Conv_output_0: 3e4da9d1
/model.2/m.1/cv1/act/Sigmoid_output_0: 3c010204
/model.2/m.1/cv1/act/Mul_output_0: 3e0560c5
/model.2/m.1/cv2/conv/Conv_output_0: 3e9e86d9
/model.2/m.1/cv2/act/Sigmoid_output_0: 3c010204
/model.2/m.1/cv2/act/Mul_output_0: 3e860b9c
/model.2/m.1/Add_output_0: 3ea23c24
/model.2/Concat_output_0: 3ebf9bb5
/model.2/cv2/conv/Conv_output_0: 3e610bbb
/model.2/cv2/act/Sigmoid_output_0: 3c010204
/model.2/cv2/act/Mul_output_0: 3e125e6f
/model.3/conv/Conv_output_0: 3dead8d6
/model.3/act/Sigmoid_output_0: 3c010200
/model.3/act/Mul_output_0: 3dead8cf
/model.4/cv1/conv/Conv_output_0: 3e61b9d6
/model.4/cv1/act/Sigmoid_output_0: 3c010204
/model.4/cv1/act/Mul_output_0: 3e61b9d6
/model.4/Split_output_0: 3e61b9d6
/model.4/Split_output_1: 3ded78a9
/model.4/m.0/cv1/conv/Conv_output_0: 3ddb7fc5
/model.4/m.0/cv1/act/Sigmoid_output_0: 3c0101fa
/model.4/m.0/cv1/act/Mul_output_0: 3ddb7fb3
/model.4/m.0/cv2/conv/Conv_output_0: 3daf4047
/model.4/m.0/cv2/act/Sigmoid_output_0: 3c010164
/model.4/m.0/cv2/act/Mul_output_0: 3daf3f6e
/model.4/m.0/Add_output_0: 3de9c3c4
/model.4/m.1/cv1/conv/Conv_output_0: 3ddc3324
/model.4/m.1/cv1/act/Sigmoid_output_0: 3c0100c3
/model.4/m.1/cv1/act/Mul_output_0: 3da430d7
/model.4/m.1/cv2/conv/Conv_output_0: 3dd29dcd
/model.4/m.1/cv2/act/Sigmoid_output_0: 3c0101f2
/model.4/m.1/cv2/act/Mul_output_0: 3dd29daf
/model.4/m.1/Add_output_0: 3de60ded
/model.4/m.2/cv1/conv/Conv_output_0: 3dae8b7f
/model.4/m.2/cv1/act/Sigmoid_output_0: 3c010054
/model.4/m.2/cv1/act/Mul_output_0: 3d9f40d8
/model.4/m.2/cv2/conv/Conv_output_0: 3dfb1fa3
/model.4/m.2/cv2/act/Sigmoid_output_0: 3c0101fd
/model.4/m.2/cv2/act/Mul_output_0: 3de15767
/model.4/m.2/Add_output_0: 3def236f
/model.4/m.3/cv1/conv/Conv_output_0: 3db577cc
/model.4/m.3/cv1/act/Sigmoid_output_0: 3c00fb18
/model.4/m.3/cv1/act/Mul_output_0: 3d88907a
/model.4/m.3/cv2/conv/Conv_output_0: 3e57a7ca
/model.4/m.3/cv2/act/Sigmoid_output_0: 3c010204
/model.4/m.3/cv2/act/Mul_output_0: 3e57a7ca
/model.4/m.3/Add_output_0: 3e57e1a7
/model.4/Concat_output_0: 3e61b9d6
/model.4/cv2/conv/Conv_output_0: 3dbd35c7
/model.4/cv2/act/Sigmoid_output_0: 3c0101c1
/model.4/cv2/act/Mul_output_0: 3dbd3564
/model.5/conv/Conv_output_0: 3dbe99d2
/model.5/act/Sigmoid_output_0: 3c0101a1
/model.5/act/Mul_output_0: 3db73edc
/model.6/cv1/conv/Conv_output_0: 3e083b2d
/model.6/cv1/act/Sigmoid_output_0: 3c010202
/model.6/cv1/act/Mul_output_0: 3df8c7f8
/model.6/Split_output_0: 3df8c7f8
/model.6/Split_output_1: 3dbf146b
/model.6/m.0/cv1/conv/Conv_output_0: 3dc32335
/model.6/m.0/cv1/act/Sigmoid_output_0: 3c00feef
/model.6/m.0/cv1/act/Mul_output_0: 3d95aefd
/model.6/m.0/cv2/conv/Conv_output_0: 3db514ef
/model.6/m.0/cv2/act/Sigmoid_output_0: 3c010112
/model.6/m.0/cv2/act/Mul_output_0: 3da8bd2a
/model.6/m.0/Add_output_0: 3dbc2929
/model.6/m.1/cv1/conv/Conv_output_0: 3da3cde8
/model.6/m.1/cv1/act/Sigmoid_output_0: 3c00f675
/model.6/m.1/cv1/act/Mul_output_0: 3d804598
/model.6/m.1/cv2/conv/Conv_output_0: 3dccc257
/model.6/m.1/cv2/act/Sigmoid_output_0: 3c0101ea
/model.6/m.1/cv2/act/Mul_output_0: 3dccc22e
/model.6/m.1/Add_output_0: 3dd56689
/model.6/m.2/cv1/conv/Conv_output_0: 3db1ab94
/model.6/m.2/cv1/act/Sigmoid_output_0: 3c00df5a
/model.6/m.2/cv1/act/Mul_output_0: 3d5cf68f
/model.6/m.2/cv2/conv/Conv_output_0: 3ddd5a63
/model.6/m.2/cv2/act/Sigmoid_output_0: 3c0101fb
/model.6/m.2/cv2/act/Mul_output_0: 3ddd5a54
/model.6/m.2/Add_output_0: 3ddb59d6
/model.6/m.3/cv1/conv/Conv_output_0: 3da137cf
/model.6/m.3/cv1/act/Sigmoid_output_0: 3c00f80e
/model.6/m.3/cv1/act/Mul_output_0: 3d82b594
/model.6/m.3/cv2/conv/Conv_output_0: 3e5a42e7
/model.6/m.3/cv2/act/Sigmoid_output_0: 3c010204
/model.6/m.3/cv2/act/Mul_output_0: 3e5a42e7
/model.6/m.3/Add_output_0: 3e69d2a5
/model.6/Concat_output_0: 3e69d2a5
/model.6/cv2/conv/Conv_output_0: 3e0118ae
/model.6/cv2/act/Sigmoid_output_0: 3c010201
/model.6/cv2/act/Mul_output_0: 3df390ab
/model.7/conv/Conv_output_0: 3e028398
/model.7/act/Sigmoid_output_0: 3c010201
/model.7/act/Mul_output_0: 3df03fd1
/model.8/cv1/conv/Conv_output_0: 3e34535c
/model.8/cv1/act/Sigmoid_output_0: 3c010204
/model.8/cv1/act/Mul_output_0: 3e34535c
/model.8/Split_output_0: 3e12777c
/model.8/Split_output_1: 3e34535c
/model.8/m.0/cv1/conv/Conv_output_0: 3dd8fbf8
/model.8/m.0/cv1/act/Sigmoid_output_0: 3c0101f8
/model.8/m.0/cv1/act/Mul_output_0: 3dd8fbe4
/model.8/m.0/cv2/conv/Conv_output_0: 3db5a062
/model.8/m.0/cv2/act/Sigmoid_output_0: 3c010161
/model.8/m.0/cv2/act/Mul_output_0: 3daee9c4
/model.8/m.0/Add_output_0: 3e344610
/model.8/m.1/cv1/conv/Conv_output_0: 3dcb0f1b
/model.8/m.1/cv1/act/Sigmoid_output_0: 3c0101e8
/model.8/m.1/cv1/act/Mul_output_0: 3dcb0eef
/model.8/m.1/cv2/conv/Conv_output_0: 3dcffa56
/model.8/m.1/cv2/act/Sigmoid_output_0: 3c0101db
/model.8/m.1/cv2/act/Mul_output_0: 3dc54085
/model.8/m.1/Add_output_0: 3e32585b
/model.8/Concat_output_0: 3e34535c
/model.8/cv2/conv/Conv_output_0: 3dc612f6
/model.8/cv2/act/Sigmoid_output_0: 3c0101dd
/model.8/cv2/act/Mul_output_0: 3dc612b9
/model.9/cv1/conv/Conv_output_0: 3db7bf88
/model.9/cv1/act/Sigmoid_output_0: 3c0101a4
/model.9/cv1/act/Mul_output_0: 3db7bf00
/model.9/m/MaxPool_output_0: 3db7bf00
/model.9/m_1/MaxPool_output_0: 3db7bf00
/model.9/m_2/MaxPool_output_0: 3db7bf00
/model.9/Concat_output_0: 3db7bf00
/model.9/cv2/conv/Conv_output_0: 3da3dbf0
/model.9/cv2/act/Sigmoid_output_0: 3c00c3dd
/model.9/cv2/act/Mul_output_0: 3d49f46e
/model.10/Resize_output_0: 3d49f46e
/model.11/Concat_output_0: 3df390ab
/model.12/cv1/conv/Conv_output_0: 3dd21395
/model.12/cv1/act/Sigmoid_output_0: 3c0101f1
/model.12/cv1/act/Mul_output_0: 3dd21377
/model.12/Split_output_0: 3dc41b76
/model.12/Split_output_1: 3dd21377
/model.12/m.0/cv1/conv/Conv_output_0: 3dd77571
/model.12/m.0/cv1/act/Sigmoid_output_0: 3c0101f7
/model.12/m.0/cv1/act/Mul_output_0: 3dd7755b
/model.12/m.0/cv2/conv/Conv_output_0: 3dad7438
/model.12/m.0/cv2/act/Sigmoid_output_0: 3c010152
/model.12/m.0/cv2/act/Mul_output_0: 3dad7349
/model.12/m.1/cv1/conv/Conv_output_0: 3e260503
/model.12/m.1/cv1/act/Sigmoid_output_0: 3c010204
/model.12/m.1/cv1/act/Mul_output_0: 3e260503
/model.12/m.1/cv2/conv/Conv_output_0: 3dbe0951
/model.12/m.1/cv2/act/Sigmoid_output_0: 3c01017d
/model.12/m.1/cv2/act/Mul_output_0: 3db21b3c
/model.12/Concat_output_0: 3dd21377
/model.12/cv2/conv/Conv_output_0: 3dc5e44e
/model.12/cv2/act/Sigmoid_output_0: 3c0101dd
/model.12/cv2/act/Mul_output_0: 3dc5e411
/model.13/Resize_output_0: 3dc5e411
/model.14/Concat_output_0: 3dc5e411
/model.15/cv1/conv/Conv_output_0: 3dae2f60
/model.15/cv1/act/Sigmoid_output_0: 3c00fd64
/model.15/cv1/act/Mul_output_0: 3d8eff49
/model.15/Split_output_0: 3d8eff49
/model.15/Split_output_1: 3d77f263
/model.15/m.0/cv1/conv/Conv_output_0: 3da67626
/model.15/m.0/cv1/act/Sigmoid_output_0: 3c0100ed
/model.15/m.0/cv1/act/Mul_output_0: 3da674be
/model.15/m.0/cv2/conv/Conv_output_0: 3dc1b42d
/model.15/m.0/cv2/act/Sigmoid_output_0: 3c01010f
/model.15/m.0/cv2/act/Mul_output_0: 3da88acf
/model.15/m.1/cv1/conv/Conv_output_0: 3de37dcf
/model.15/m.1/cv1/act/Sigmoid_output_0: 3c010024
/model.15/m.1/cv1/act/Mul_output_0: 3d9d8bc1
/model.15/m.1/cv2/conv/Conv_output_0: 3e4fefa4
/model.15/m.1/cv2/act/Sigmoid_output_0: 3c010200
/model.15/m.1/cv2/act/Mul_output_0: 3de911ea
/model.15/Concat_output_0: 3de911ea
/model.15/cv2/conv/Conv_output_0: 3e28f5d4
/model.15/cv2/act/Sigmoid_output_0: 3c0101c6
/model.15/cv2/act/Mul_output_0: 3dbe6c9a
/model.16/conv/Conv_output_0: 3df849c5
/model.22/cv2.0/cv2.0.0/conv/Conv_output_0: 3ea02321
/model.22/cv3.0/cv3.0.0/conv/Conv_output_0: 3e14924b
/model.16/act/Sigmoid_output_0: 3c0101fa
/model.22/cv2.0/cv2.0.0/act/Sigmoid_output_0: 3c010204
/model.22/cv3.0/cv3.0.0/act/Sigmoid_output_0: 3c010204
/model.16/act/Mul_output_0: 3ddc495c
/model.22/cv2.0/cv2.0.0/act/Mul_output_0: 3ea02321
/model.22/cv3.0/cv3.0.0/act/Mul_output_0: 3e06d9b5
/model.17/Concat_output_0: 3ddc495c
/model.22/cv2.0/cv2.0.1/conv/Conv_output_0: 3f044f92
/model.22/cv3.0/cv3.0.1/conv/Conv_output_0: 3ee9feec
/model.18/cv1/conv/Conv_output_0: 3e3e0d4d
/model.22/cv2.0/cv2.0.1/act/Sigmoid_output_0: 3c010204
/model.22/cv3.0/cv3.0.1/act/Sigmoid_output_0: 3c010204
/model.18/cv1/act/Sigmoid_output_0: 3c010204
/model.22/cv2.0/cv2.0.1/act/Mul_output_0: 3f044f92
/model.22/cv3.0/cv3.0.1/act/Mul_output_0: 3ec9bc34
/model.18/cv1/act/Mul_output_0: 3e1247d4
/model.22/cv2.0/cv2.0.2/Conv_output_0: 3f8c03df
/model.22/cv3.0/cv3.0.2/Conv_output_0: 3f40e649
/model.18/Split_output_0: 3e1247d4
/model.18/Split_output_1: 3e03354a
/model.22/Concat_output_0: 3f8c03df
/model.18/m.0/cv1/conv/Conv_output_0: 3df68f6a
/model.22/Reshape_output_0: 3f8c03df
/model.18/m.0/cv1/act/Sigmoid_output_0: 3c010202
/model.18/m.0/cv1/act/Mul_output_0: 3df68f66
/model.18/m.0/cv2/conv/Conv_output_0: 3e114e29
/model.18/m.0/cv2/act/Sigmoid_output_0: 3c010203
/model.18/m.0/cv2/act/Mul_output_0: 3dfe9404
/model.18/m.1/cv1/conv/Conv_output_0: 3e4819b9
/model.18/m.1/cv1/act/Sigmoid_output_0: 3c0101fc
/model.18/m.1/cv1/act/Mul_output_0: 3ddfb510
/model.18/m.1/cv2/conv/Conv_output_0: 3e448521
/model.18/m.1/cv2/act/Sigmoid_output_0: 3c010204
/model.18/m.1/cv2/act/Mul_output_0: 3e448521
/model.18/Concat_output_0: 3e448521
/model.18/cv2/conv/Conv_output_0: 3e83b7d2
/model.18/cv2/act/Sigmoid_output_0: 3c010204
/model.18/cv2/act/Mul_output_0: 3e38ee9f
/model.19/conv/Conv_output_0: 3dd4ab83
/model.22/cv2.1/cv2.1.0/conv/Conv_output_0: 3e617c8e
/model.22/cv3.1/cv3.1.0/conv/Conv_output_0: 3e415411
/model.19/act/Sigmoid_output_0: 3c0101f4
/model.22/cv2.1/cv2.1.0/act/Sigmoid_output_0: 3c010204
/model.22/cv3.1/cv3.1.0/act/Sigmoid_output_0: 3c010204
/model.19/act/Mul_output_0: 3dd4ab69
/model.22/cv2.1/cv2.1.0/act/Mul_output_0: 3e617c8e
/model.22/cv3.1/cv3.1.0/act/Mul_output_0: 3e156c52
/model.20/Concat_output_0: 3dd4ab69
/model.22/cv2.1/cv2.1.1/conv/Conv_output_0: 3eb1f7a2
/model.22/cv3.1/cv3.1.1/conv/Conv_output_0: 3eb864d5
/model.21/cv1/conv/Conv_output_0: 3e278cb0
/model.22/cv2.1/cv2.1.1/act/Sigmoid_output_0: 3c010204
/model.22/cv3.1/cv3.1.1/act/Sigmoid_output_0: 3c010204
/model.21/cv1/act/Sigmoid_output_0: 3c010204
/model.22/cv2.1/cv2.1.1/act/Mul_output_0: 3eb1f7a2
/model.22/cv3.1/cv3.1.1/act/Mul_output_0: 3e8999a0
/model.21/cv1/act/Mul_output_0: 3e278cb0
/model.22/cv2.1/cv2.1.2/Conv_output_0: 3ec3c23b
/model.22/cv3.1/cv3.1.2/Conv_output_0: 3e936d9f
/model.21/Split_output_0: 3dd9c3b3
/model.21/Split_output_1: 3e278cb0
/model.22/Concat_1_output_0: 3ec3c23b
/model.21/m.0/cv1/conv/Conv_output_0: 3df4e142
/model.22/Reshape_1_output_0: 3ec3c23b
/model.21/m.0/cv1/act/Sigmoid_output_0: 3c010202
/model.21/m.0/cv1/act/Mul_output_0: 3df4e13c
/model.21/m.0/cv2/conv/Conv_output_0: 3dd97d18
/model.21/m.0/cv2/act/Sigmoid_output_0: 3c01012a
/model.21/m.0/cv2/act/Mul_output_0: 3daa565e
/model.21/m.1/cv1/conv/Conv_output_0: 3db634d3
/model.21/m.1/cv1/act/Sigmoid_output_0: 3c01019b
/model.21/m.1/cv1/act/Mul_output_0: 3db6343d
/model.21/m.1/cv2/conv/Conv_output_0: 3e0a5360
/model.21/m.1/cv2/act/Sigmoid_output_0: 3c010204
/model.21/m.1/cv2/act/Mul_output_0: 3e0a5360
/model.21/Concat_output_0: 3e278cb0
/model.21/cv2/conv/Conv_output_0: 3e3dba9a
/model.21/cv2/act/Sigmoid_output_0: 3c010204
/model.21/cv2/act/Mul_output_0: 3e3dba9a
/model.22/cv2.2/cv2.2.0/conv/Conv_output_0: 3e324971
/model.22/cv3.2/cv3.2.0/conv/Conv_output_0: 3e050775
/model.22/cv2.2/cv2.2.0/act/Sigmoid_output_0: 3c010204
/model.22/cv3.2/cv3.2.0/act/Sigmoid_output_0: 3c0101f6
/model.22/cv2.2/cv2.2.0/act/Mul_output_0: 3e324971
/model.22/cv3.2/cv3.2.0/act/Mul_output_0: 3dd608a0
/model.22/cv2.2/cv2.2.1/conv/Conv_output_0: 3ea009c1
/model.22/cv3.2/cv3.2.1/conv/Conv_output_0: 3e57a4cc
/model.22/cv2.2/cv2.2.1/act/Sigmoid_output_0: 3c010204
/model.22/cv3.2/cv3.2.1/act/Sigmoid_output_0: 3c010204
/model.22/cv2.2/cv2.2.1/act/Mul_output_0: 3e902063
/model.22/cv3.2/cv3.2.1/act/Mul_output_0: 3e13cba7
/model.22/cv2.2/cv2.2.2/Conv_output_0: 3f09328d
/model.22/cv3.2/cv3.2.2/Conv_output_0: 3e422137
/model.22/Concat_2_output_0: 3f09328d
/model.22/Reshape_2_output_0: 3f09328d
/model.22/Concat_3_output_0: 3f8c03df
/model.22/Split_output_0: 3f8c03df
/model.22/Split_output_1: 3f40e649
/model.22/dfl/Reshape_output_0: 3f8c03df
/model.22/Sigmoid_output_0: 3bf05eb3
/model.22/dfl/Transpose_output_0: 3f8c03df
/model.22/dfl/Softmax_output: 3c010204
/model.22/dfl/Softmax_output_0: 3c010204
/model.22/dfl/conv/Conv_output_0: 3d3f8947
/model.22/dfl/Reshape_1_output_0: 3d3f8947
/model.22/Sub_output_0: 3f203c6b
ONNXTRT_Broadcast_output: 3c810204
/model.22/Constant_10_output_0_output: 3f204081
output0: 40a1152a
/model.22/Mul_2_output_0: 40a1152a
/model.22/Add_1_output_0: 3f224505
/model.22/Div_1_output_0: 3f20d63d
/model.22/Concat_4_output_0: 3f20d63d
/model.22/Constant_9_output_0_output: 3f204081
/model.22/Constant_11_output_0_output: 3c810204
