TRT-100300-MinMaxCalibration
images: 3c010204
/model.0/conv/Conv_output_0: 3fb33df3
/model.22/Mul_2_output_0: 40a1195b
/model.22/Sub_output_0: 3f203a9a
/model.22/Constant_12_output_0_output: 3e810204
/model.0/act/Sigmoid_output_0: 3c010204
output0: 40a1195b
/model.22/Slice_output_0: 3d28cac7
/model.0/act/Mul_output_0: 3f9fd688
/model.22/Sub_1_output_0: 3d9fb475
/model.1/conv/Conv_output_0: 4014d8e6
/model.1/act/Sigmoid_output_0: 3c010204
/model.1/act/Mul_output_0: 4014d8e6
/model.2/cv1/conv/Conv_output_0: 3fa220fe
/model.2/cv1/act/Sigmoid_output_0: 3c010204
/model.2/cv1/act/Mul_output_0: 3f2299e2
/model.2/Split_output_0: 3f2299e2
/model.2/Split_output_1: 3e8c592c
/model.2/m.0/cv1/conv/Conv_output_0: 3f16fcfa
/model.2/m.0/cv1/act/Sigmoid_output_0: 3c010204
/model.2/m.0/cv1/act/Mul_output_0: 3ee9c9be
/model.2/m.0/cv2/conv/Conv_output_0: 3f01ee8b
/model.2/m.0/cv2/act/Sigmoid_output_0: 3c010204
/model.2/m.0/cv2/act/Mul_output_0: 3eb2a132
/model.2/m.0/Add_output_0: 3ee7b310
/model.2/Concat_output_0: 3f2299e2
/model.2/cv2/conv/Conv_output_0: 3eb15cad
/model.2/cv2/act/Sigmoid_output_0: 3c010204
/model.2/cv2/act/Mul_output_0: 3e25dab6
/model.3/conv/Conv_output_0: 3dd6da5c
/model.3/act/Sigmoid_output_0: 3c010165
/model.3/act/Mul_output_0: 3daf5448
/model.4/cv1/conv/Conv_output_0: 3e131341
/model.4/cv1/act/Sigmoid_output_0: 3c0101f4
/model.4/cv1/act/Mul_output_0: 3dd4868c
/model.4/Split_output_0: 3dd4868c
/model.4/Split_output_1: 3daa801d
/model.4/m.0/cv1/conv/Conv_output_0: 3dbb869d
/model.4/m.0/cv1/act/Sigmoid_output_0: 3c0101a2
/model.4/m.0/cv1/act/Mul_output_0: 3db75b16
/model.4/m.0/cv2/conv/Conv_output_0: 3dc04171
/model.4/m.0/cv2/act/Sigmoid_output_0: 3c01006f
/model.4/m.0/cv2/act/Mul_output_0: 3da06e11
/model.4/m.0/Add_output_0: 3dba89ff
/model.4/m.1/cv1/conv/Conv_output_0: 3dac8530
/model.4/m.1/cv1/act/Sigmoid_output_0: 3c00fdbc
/model.4/m.1/cv1/act/Mul_output_0: 3d905ef9
/model.4/m.1/cv2/conv/Conv_output_0: 3e198353
/model.4/m.1/cv2/act/Sigmoid_output_0: 3c010204
/model.4/m.1/cv2/act/Mul_output_0: 3e05cd53
/model.4/m.1/Add_output_0: 3e11851c
/model.4/Concat_output_0: 3e11851c
/model.4/cv2/conv/Conv_output_0: 3dc6dba7
/model.4/cv2/act/Sigmoid_output_0: 3c01007b
/model.4/cv2/act/Mul_output_0: 3da0fa99
/model.5/conv/Conv_output_0: 3dd24c7b
/model.5/act/Sigmoid_output_0: 3c0101b0
/model.5/act/Mul_output_0: 3db9c437
/model.6/cv1/conv/Conv_output_0: 3e2d4459
/model.6/cv1/act/Sigmoid_output_0: 3c0101da
/model.6/cv1/act/Mul_output_0: 3dc4f92a
/model.6/Split_output_0: 3dc4f92a
/model.6/Split_output_1: 3dafb894
/model.6/m.0/cv1/conv/Conv_output_0: 3dbd4aee
/model.6/m.0/cv1/act/Sigmoid_output_0: 3c01013f
/model.6/m.0/cv1/act/Mul_output_0: 3dabf5d7
/model.6/m.0/cv2/conv/Conv_output_0: 3dc56143
/model.6/m.0/cv2/act/Sigmoid_output_0: 3c0101a9
/model.6/m.0/cv2/act/Mul_output_0: 3db89966
/model.6/m.0/Add_output_0: 3dc7a200
/model.6/m.1/cv1/conv/Conv_output_0: 3dbbe75f
/model.6/m.1/cv1/act/Sigmoid_output_0: 3c01010f
/model.6/m.1/cv1/act/Mul_output_0: 3da8803e
/model.6/m.1/cv2/conv/Conv_output_0: 3e02b057
/model.6/m.1/cv2/act/Sigmoid_output_0: 3c010204
/model.6/m.1/cv2/act/Mul_output_0: 3e02b057
/model.6/m.1/Add_output_0: 3dfcf154
/model.6/Concat_output_0: 3dfcf154
/model.6/cv2/conv/Conv_output_0: 3dc07983
/model.6/cv2/act/Sigmoid_output_0: 3c0101cd
/model.6/cv2/act/Mul_output_0: 3dc07930
/model.7/conv/Conv_output_0: 3db3cbad
/model.7/act/Sigmoid_output_0: 3c01018a
/model.7/act/Mul_output_0: 3db3cb03
/model.8/cv1/conv/Conv_output_0: 3dfae93c
/model.8/cv1/act/Sigmoid_output_0: 3c010203
/model.8/cv1/act/Mul_output_0: 3dfae939
/model.8/Split_output_0: 3dfae939
/model.8/Split_output_1: 3dca50a0
/model.8/m.0/cv1/conv/Conv_output_0: 3db81950
/model.8/m.0/cv1/act/Sigmoid_output_0: 3c0101a6
/model.8/m.0/cv1/act/Mul_output_0: 3db818ca
/model.8/m.0/cv2/conv/Conv_output_0: 3e0a9a51
/model.8/m.0/cv2/act/Sigmoid_output_0: 3c0101f5
/model.8/m.0/cv2/act/Mul_output_0: 3dd5d88b
/model.8/m.0/Add_output_0: 3dedc1b8
/model.8/Concat_output_0: 3dfae939
/model.8/cv2/conv/Conv_output_0: 3dd2603c
/model.8/cv2/act/Sigmoid_output_0: 3c00ff89
/model.8/cv2/act/Mul_output_0: 3d991f65
/model.9/cv1/conv/Conv_output_0: 3daa127f
/model.9/cv1/act/Sigmoid_output_0: 3c010126
/model.9/cv1/act/Mul_output_0: 3daa115b
/model.9/m/MaxPool_output_0: 3daa115b
/model.9/m_1/MaxPool_output_0: 3daa115b
/model.9/m_2/MaxPool_output_0: 3daa115b
/model.9/Concat_output_0: 3daa115b
/model.9/cv2/conv/Conv_output_0: 3da178f1
/model.9/cv2/act/Sigmoid_output_0: 3c00e805
/model.9/cv2/act/Mul_output_0: 3d664ca5
/model.10/Resize_output_0: 3d664ca5
/model.11/Concat_output_0: 3dc07930
/model.12/cv1/conv/Conv_output_0: 3dbf5ddc
/model.12/cv1/act/Sigmoid_output_0: 3c0101c9
/model.12/cv1/act/Mul_output_0: 3dbf5d83
/model.12/Split_output_0: 3d992310
/model.12/Split_output_1: 3dbf5d83
/model.12/m.0/cv1/conv/Conv_output_0: 3dc43a80
/model.12/m.0/cv1/act/Sigmoid_output_0: 3c010151
/model.12/m.0/cv1/act/Mul_output_0: 3dad676c
/model.12/m.0/cv2/conv/Conv_output_0: 3dbf5606
/model.12/m.0/cv2/act/Sigmoid_output_0: 3c010121
/model.12/m.0/cv2/act/Mul_output_0: 3da9c22d
/model.12/Concat_output_0: 3dbf5d83
/model.12/cv2/conv/Conv_output_0: 3db6a7c4
/model.12/cv2/act/Sigmoid_output_0: 3c01019d
/model.12/cv2/act/Mul_output_0: 3db6a732
/model.13/Resize_output_0: 3db6a732
/model.14/Concat_output_0: 3db6a732
/model.15/cv1/conv/Conv_output_0: 3d8f7cc7
/model.15/cv1/act/Sigmoid_output_0: 3c00ee3f
/model.15/cv1/act/Mul_output_0: 3d6f2d80
/model.15/Split_output_0: 3d6f2d80
/model.15/Split_output_1: 3d4ea3ff
/model.15/m.0/cv1/conv/Conv_output_0: 3d8a038c
/model.15/m.0/cv1/act/Sigmoid_output_0: 3c00f1eb
/model.15/m.0/cv1/act/Mul_output_0: 3d75d454
/model.15/m.0/cv2/conv/Conv_output_0: 3df54303
/model.15/m.0/cv2/act/Sigmoid_output_0: 3c0101ae
/model.15/m.0/cv2/act/Mul_output_0: 3db98803
/model.15/Concat_output_0: 3db98803
/model.15/cv2/conv/Conv_output_0: 3e25f4d8
/model.15/cv2/act/Sigmoid_output_0: 3c010153
/model.15/cv2/act/Mul_output_0: 3dad8afc
/model.16/conv/Conv_output_0: 3dfc08d7
/model.22/cv2.0/cv2.0.0/conv/Conv_output_0: 3e3390d8
/model.22/cv3.0/cv3.0.0/conv/Conv_output_0: 3e0b293f
/model.16/act/Sigmoid_output_0: 3c010203
/model.22/cv2.0/cv2.0.0/act/Sigmoid_output_0: 3c0101ff
/model.22/cv3.0/cv3.0.0/act/Sigmoid_output_0: 3c0101f2
/model.16/act/Mul_output_0: 3dfc08d4
/model.22/cv2.0/cv2.0.0/act/Mul_output_0: 3de7bc11
/model.22/cv3.0/cv3.0.0/act/Mul_output_0: 3dd2a3ef
/model.17/Concat_output_0: 3dfc08d4
/model.22/cv2.0/cv2.0.1/conv/Conv_output_0: 3e7737fe
/model.22/cv3.0/cv3.0.1/conv/Conv_output_0: 3dc20e67
/model.18/cv1/conv/Conv_output_0: 3e1f0d7e
/model.22/cv2.0/cv2.0.1/act/Sigmoid_output_0: 3c010204
/model.22/cv3.0/cv3.0.1/act/Sigmoid_output_0: 3c010094
/model.18/cv1/act/Sigmoid_output_0: 3c0101ff
/model.22/cv2.0/cv2.0.1/act/Mul_output_0: 3e7737fe
/model.22/cv3.0/cv3.0.1/act/Mul_output_0: 3da1efe3
/model.18/cv1/act/Mul_output_0: 3de8dcab
/model.22/cv2.0/cv2.0.2/Conv_output_0: 3f0fcb71
/model.22/cv3.0/cv3.0.2/Conv_output_0: 3e73deb4
/model.18/Split_output_0: 3de7f031
/model.18/Split_output_1: 3de8dcab
/model.22/Concat_output_0: 3f0fcb71
/model.18/m.0/cv1/conv/Conv_output_0: 3e0808e4
/model.22/Reshape_output_0: 3f0fcb71
/model.18/m.0/cv1/act/Sigmoid_output_0: 3c00fe13
/model.18/m.0/cv1/act/Mul_output_0: 3d91a2d8
/model.18/m.0/cv2/conv/Conv_output_0: 3e3e4351
/model.18/m.0/cv2/act/Sigmoid_output_0: 3c010204
/model.18/m.0/cv2/act/Mul_output_0: 3e3e4351
/model.18/Concat_output_0: 3e3e4351
/model.18/cv2/conv/Conv_output_0: 3e2bedaa
/model.18/cv2/act/Sigmoid_output_0: 3c0101c8
/model.18/cv2/act/Mul_output_0: 3dbeef2b
/model.19/conv/Conv_output_0: 3dbf49c4
/model.22/cv2.1/cv2.1.0/conv/Conv_output_0: 3e182ca9
/model.22/cv3.1/cv3.1.0/conv/Conv_output_0: 3db71e8c
/model.19/act/Sigmoid_output_0: 3c0101c9
/model.22/cv2.1/cv2.1.0/act/Sigmoid_output_0: 3c010204
/model.22/cv3.1/cv3.1.0/act/Sigmoid_output_0: 3c00ff11
/model.19/act/Mul_output_0: 3dbf496c
/model.22/cv2.1/cv2.1.0/act/Mul_output_0: 3e182ca9
/model.22/cv3.1/cv3.1.0/act/Mul_output_0: 3d966524
/model.20/Concat_output_0: 3dbf496c
/model.22/cv2.1/cv2.1.1/conv/Conv_output_0: 3e6d1a6c
/model.22/cv3.1/cv3.1.1/conv/Conv_output_0: 3dcbfb12
/model.21/cv1/conv/Conv_output_0: 3e0d2966
/model.22/cv2.1/cv2.1.1/act/Sigmoid_output_0: 3c010204
/model.22/cv3.1/cv3.1.1/act/Sigmoid_output_0: 3c00fc9e
/model.21/cv1/act/Sigmoid_output_0: 3c0101fc
/model.22/cv2.1/cv2.1.1/act/Mul_output_0: 3e4a0661
/model.22/cv3.1/cv3.1.1/act/Mul_output_0: 3d8c76cf
/model.21/cv1/act/Mul_output_0: 3de05170
/model.22/cv2.1/cv2.1.2/Conv_output_0: 3e98c520
/model.22/cv3.1/cv3.1.2/Conv_output_0: 3e3f1d68
/model.21/Split_output_0: 3de05170
/model.21/Split_output_1: 3dd757fa
/model.22/Concat_1_output_0: 3e98c520
/model.21/m.0/cv1/conv/Conv_output_0: 3dff5c2e
/model.22/Reshape_1_output_0: 3e98c520
/model.21/m.0/cv1/act/Sigmoid_output_0: 3c010179
/model.21/m.0/cv1/act/Mul_output_0: 3db19d19
/model.21/m.0/cv2/conv/Conv_output_0: 3e481d9a
/model.21/m.0/cv2/act/Sigmoid_output_0: 3c010202
/model.21/m.0/cv2/act/Mul_output_0: 3df79a4f
/model.21/Concat_output_0: 3df79a4f
/model.21/cv2/conv/Conv_output_0: 3e4cf048
/model.21/cv2/act/Sigmoid_output_0: 3c010204
/model.21/cv2/act/Mul_output_0: 3e08e52a
/model.22/cv2.2/cv2.2.0/conv/Conv_output_0: 3e06c58f
/model.22/cv3.2/cv3.2.0/conv/Conv_output_0: 3da47cca
/model.22/cv2.2/cv2.2.0/act/Sigmoid_output_0: 3c010202
/model.22/cv3.2/cv3.2.0/act/Sigmoid_output_0: 3c0100c8
/model.22/cv2.2/cv2.2.0/act/Mul_output_0: 3df9c319
/model.22/cv3.2/cv3.2.0/act/Mul_output_0: 3da47b36
/model.22/cv2.2/cv2.2.1/conv/Conv_output_0: 3e3d3f51
/model.22/cv3.2/cv3.2.1/conv/Conv_output_0: 3daff9ae
/model.22/cv2.2/cv2.2.1/act/Sigmoid_output_0: 3c010204
/model.22/cv3.2/cv3.2.1/act/Sigmoid_output_0: 3c0100bf
/model.22/cv2.2/cv2.2.1/act/Mul_output_0: 3e3d3f51
/model.22/cv3.2/cv3.2.1/act/Mul_output_0: 3da4077b
/model.22/cv2.2/cv2.2.2/Conv_output_0: 3eb7ce06
/model.22/cv3.2/cv3.2.2/Conv_output_0: 3e0d459f
/model.22/Concat_2_output_0: 3eb7ce06
/model.22/Reshape_2_output_0: 3eb7ce06
/model.22/Concat_3_output_0: 3f0fcb71
/model.22/Split_output_0: 3f0fcb71
/model.22/Split_output_1: 3e73deb4
/model.22/dfl/Reshape_output_0: 3f0fcb71
/model.22/Sigmoid_output_0: 3bed7d84
/model.22/dfl/Transpose_output_0: 3f0fcb71
/model.22/dfl/Softmax_output: 3c010204
/model.22/dfl/Softmax_output_0: 3c010204
/model.22/dfl/conv/Conv_output_0: 3d35071a
/model.22/dfl/Reshape_1_output_0: 3d35071a
/model.22/Constant_10_output_0_output: 3f204081
/model.22/Slice_1_output_0: 3d35071a
/model.22/Add_2_output_0: 3fa1195b
ONNXTRT_Broadcast_95_output: 3e810204
/model.22/Constant_11_output_0_output: 3c810204
/model.22/Div_1_output_0: 3f21195b
/model.22/Constant_9_output_0_output: 3f204081
/model.22/Add_1_output_0: 3f233ee1
ONNXTRT_Broadcast_output: 3c810204
/model.22/Concat_4_output_0: 3f21195b
